<unk>	0
<s>	0
</s>	0
<pad>	0
▁k	-0
▁s	-1
er	-2
▁b	-3
ar	-4
▁m	-5
an	-6
▁t	-7
▁a	-8
▁p	-9
ya	-10
li	-11
▁d	-12
en	-13
▁1	-14
▁c	-15
in	-16
as	-17
▁g	-18
on	-19
al	-20
ek	-21
00	-22
et	-23
▁-	-24
or	-25
ak	-26
el	-27
▁2	-28
▁h	-29
▁f	-30
es	-31
at	-32
▁ka	-33
em	-34
ol	-35
am	-36
ın	-37
▁r	-38
▁l	-39
lı	-40
ik	-41
▁ç	-42
▁i	-43
il	-44
▁3	-45
▁n	-46
▁v	-47
ab	-48
lu	-49
▁4	-50
it	-51
▁ya	-52
▁e	-53
ot	-54
is	-55
▁y	-56
un	-57
50	-58
▁si	-59
os	-60
ir	-61
ur	-62
um	-63
01	-64
▁be	-65
yah	-66
ır	-67
av	-68
▁9	-69
ası	-70
ay	-71
ed	-72
▁siyah	-73
om	-74
▁er	-75
ac	-76
lar	-77
ic	-78
▁u	-79
▁8	-80
tr	-81
▁5	-82
esi	-83
60	-84
▁erk	-85
▁erkek	-86
ap	-87
lik	-88
ant	-89
▁o	-90
10	-91
iz	-92
▁w	-93
lü	-94
▁(	-95
▁ar	-96
▁gr	-97
20	-98
▁pr	-99
▁/	-100
ma	-101
ür	-102
le	-103
aş	-104
▁kad	-105
cu	-106
▁ml	-107
ğı	-108
us	-109
eri	-110
▁7	-111
ul	-112
ün	-113
ad	-114
op	-115
▁cm	-116
▁kadın	-117
▁al	-118
▁6	-119
▁ş	-120
im	-121
▁ad	-122
▁bo	-123
ım	-124
af	-125
▁j	-126
▁yay	-127
ev	-128
▁kar	-129
ız	-130
id	-131
alı	-132
▁ve	-133
▁x	-134
eti	-135
yak	-136
-1	-137
od	-138
30	-139
and	-140
▁st	-141
abı	-142
78	-143
▁ö	-144
ah	-145
ch	-146
ut	-147
▁par	-148
▁yayın	-149
▁ayak	-150
ları	-151
ili	-152
oğ	-153
ver	-154
ye	-155
if	-156
me	-157
▁el	-158
st	-159
▁z	-160
25	-161
80	-162
az	-163
yaz	-164
40	-165
iş	-166
▁ayakk	-167
ok	-168
ey	-169
uz	-170
▁mak	-171
▁li	-172
sı	-173
▁sp	-174
▁ayakkabı	-175
▁kal	-176
eli	-177
▁10	-178
▁beyaz	-179
ta	-180
ık	-181
▁an	-182
▁kr	-183
of	-184
▁100	-185
ep	-186
ef	-187
▁tr	-188
lık	-189
-2	-190
▁kap	-191
ec	-192
▁0	-193
ell	-194
ast	-195
ig	-196
▁kol	-197
ör	-198
uş	-199
12	-200
ler	-201
cı	-202
15	-203
▁978	-204
üm	-205
emi	-206
üz	-207
eş	-208
▁ak	-209
▁gün	-210
▁yayınları	-211
ge	-212
avi	-213
ort	-214
uk	-215
70	-216
be	-217
ük	-218
▁kır	-219
▁200	-220
akım	-221
ocu	-222
▁boya	-223
▁12	-224
75	-225
13	-226
▁çocu	-227
▁alt	-228
▁sa	-229
ow	-230
▁çocuk	-231
▁mavi	-232
ıl	-233
te	-234
ing	-235
▁50	-236
bl	-237
14	-238
▁ay	-239
ne	-240
ve	-241
90	-242
▁beb	-243
▁20	-244
▁in	-245
da	-246
ce	-247
si	-248
▁makin	-249
edi	-250
isi	-251
man	-252
ça	-253
ti	-254
16	-255
000	-256
▁kit	-257
▁ren	-258
18	-259
re	-260
ızı	-261
ip	-262
▁or	-263
ül	-264
de	-265
▁bebek	-266
▁gö	-267
gb	-268
▁su	-269
▁seti	-270
▁takım	-271
ış	-272
mızı	-273
19	-274
▁adet	-275
ro	-276
32	-277
ama	-278
est	-279
▁15	-280
▁av	-281
▁ser	-282
las	-283
▁kor	-284
▁çant	-285
ard	-286
35	-287
ex	-288
▁kalem	-289
▁kırmızı	-290
ent	-291
▁no	-292
▁as	-293
▁br	-294
24	-295
ılı	-296
end	-297
▁makinesi	-298
▁tek	-299
yun	-300
▁ek	-301
65	-302
▁kah	-303
605	-304
ürk	-305
dı	-306
arı	-307
bo	-308
▁tab	-309
45	-310
▁mm	-311
ml	-312
▁mod	-313
let	-314
▁kağı	-315
ax	-316
ag	-317
▁bab	-318
11	-319
▁renk	-320
ens	-321
▁ter	-322
68	-323
▁uy	-324
raf	-325
yon	-326
▁des	-327
uv	-328
▁bot	-329
ali	-330
art	-331
▁kabl	-332
cm	-333
▁pl	-334
▁978605	-335
ia	-336
▁takımı	-337
▁mas	-338
lus	-339
ark	-340
34	-341
üş	-342
iver	-343
▁fot	-344
og	-345
36	-346
▁sü	-347
▁19	-348
ack	-349
gi	-350
▁öz	-351
▁parça	-352
▁mat	-353
17	-354
▁ed	-355
▁kağıdı	-356
▁gri	-357
▁40	-358
▁fil	-359
çe	-360
▁201	-361
100	-362
▁hav	-363
ıcı	-364
ps	-365
▁top	-366
lük	-367
▁pol	-368
.5	-369
embe	-370
ği	-371
▁mon	-372
per	-373
▁hp	-374
22	-375
eni	-376
▁türk	-377
38	-378
▁un	-379
▁lac	-380
▁se	-381
▁taş	-382
▁at	-383
ilik	-384
▁dek	-385
▁kul	-386
▁kö	-387
▁pro	-388
▁doğ	-389
▁pembe	-390
▁min	-391
yu	-392
▁çantası	-393
oğraf	-394
▁oyun	-395
▁cam	-396
▁deri	-397
▁bl	-398
eg	-399
sb	-400
▁kart	-401
▁mo	-402
ber	-403
▁ch	-404
ka	-405
▁30	-406
▁set	-407
▁ot	-408
200	-409
▁fl	-410
ici	-411
▁em	-412
▁18	-413
ran	-414
▁met	-415
ati	-416
▁ban	-417
▁25	-418
▁fotoğraf	-419
▁kiş	-420
tre	-421
▁to	-422
old	-423
sh	-424
27	-425
▁sh	-426
ter	-427
hp	-428
69	-429
pr	-430
▁de	-431
ivert	-432
ud	-433
iye	-434
▁kur	-435
▁dekor	-436
▁ü	-437
▁hd	-438
▁günlük	-439
qu	-440
▁bas	-441
▁kg	-442
▁ph	-443
▁bi	-444
28	-445
ift	-446
co	-447
ans	-448
one	-449
▁saç	-450
▁lacivert	-451
ih	-452
▁bos	-453
26	-454
▁fır	-455
ine	-456
▁desen	-457
▁150	-458
▁et	-459
95	-460
ker	-461
▁usb	-462
33	-463
▁yeş	-464
▁16	-465
-0	-466
lin	-467
la	-468
▁es	-469
mm	-470
.0	-471
▁lt	-472
▁14	-473
▁bay	-474
▁baby	-475
▁kitap	-476
▁500	-477
▁ton	-478
▁son	-479
▁bat	-480
tra	-481
▁ko	-482
ara	-483
▁kulak	-484
maz	-485
▁24	-486
ung	-487
▁elek	-488
üs	-489
94	-490
▁çift	-491
74	-492
▁bir	-493
▁can	-494
▁göz	-495
▁elektr	-496
▁ev	-497
üy	-498
▁gold	-499
evi	-500
lan	-501
uvar	-502
▁th	-503
▁bil	-504
55	-505
▁ol	-506
-4	-507
▁9789	-508
▁per	-509
▁altın	-510
▁tur	-511
ri	-512
▁sam	-513
yo	-514
▁60	-515
▁for	-516
ist	-517
ome	-518
bi	-519
▁serisi	-520
▁ex	-521
sa	-522
çin	-523
ci	-524
ra	-525
▁köp	-526
23	-527
▁pas	-528
▁plus	-529
leri	-530
umlu	-531
do	-532
ön	-533
▁eş	-534
▁col	-535
▁mot	-536
▁tar	-537
aj	-538
lak	-539
ulu	-540
▁yeşil	-541
amp	-542
▁desenli	-543
98	-544
ki	-545
▁ah	-546
lığı	-547
▁kişilik	-548
ost	-549
ıt	-550
▁kedi	-551
idas	-552
▁yaz	-553
▁kılı	-554
21	-555
-6	-556
zi	-557
▁kon	-558
-3	-559
▁kum	-560
ix	-561
can	-562
ni	-563
▁adidas	-564
sung	-565
▁ro	-566
▁bosch	-567
ğü	-568
▁di	-569
ower	-570
enc	-571
▁blu	-572
▁şar	-573
to	-574
▁parf	-575
atik	-576
up	-577
ağı	-578
▁klas	-579
▁ne	-580
▁renkli	-581
▁sarı	-582
▁sw	-583
▁ge	-584
▁parfüm	-585
▁tel	-586
▁kılıf	-587
se	-588
▁halı	-589
▁sır	-590
▁toner	-591
mer	-592
▁kablos	-593
64	-594
▁ac	-595
san	-596
aç	-597
▁şarj	-598
ere	-599
irt	-600
▁mu	-601
▁art	-602
▁80	-603
▁"	-604
▁uyumlu	-605
37	-606
ox	-607
▁kız	-608
mi	-609
▁dol	-610
54	-611
ore	-612
▁not	-613
ub	-614
ov	-615
den	-616
▁+	-617
▁ekran	-618
▁ap	-619
line	-620
ıf	-621
▁köpek	-622
▁kl	-623
asi	-624
▁dr	-625
▁kut	-626
ardak	-627
▁ul	-628
29	-629
▁bardak	-630
oc	-631
▁samsung	-632
▁tv	-633
▁har	-634
▁krom	-635
""	-636
▁der	-637
-201	-638
oru	-639
▁250	-640
▁kartuş	-641
▁duvar	-642
ht	-643
elik	-644
▁36	-645
int	-646
77	-647
lüğü	-648
▁prof	-649
shirt	-650
▁klasik	-651
▁13	-652
engi	-653
di	-654
gr	-655
▁tem	-656
▁sand	-657
ike	-658
▁boyası	-659
▁978975	-660
-5	-661
uyu	-662
ond	-663
ata	-664
▁70	-665
▁yüz	-666
▁hak	-667
▁mam	-668
ella	-669
▁ok	-670
▁45	-671
▁pak	-672
▁q	-673
▁çay	-674
▁oto	-675
▁terlik	-676
ba	-677
onlu	-678
verengi	-679
uyucu	-680
▁tor	-681
▁polar	-682
▁home	-683
▁kü	-684
▁san	-685
taş	-686
ümüş	-687
▁po	-688
-8	-689
▁ab	-690
▁aç	-691
▁yap	-692
▁bayan	-693
▁kahverengi	-694
lat	-695
ikli	-696
ess	-697
96	-698
▁1.	-699
▁güneş	-700
go	-701
▁am	-702
oft	-703
▁re	-704
▁bal	-705
▁cr	-706
▁38	-707
eme	-708
dr	-709
gan	-710
97	-711
▁sırt	-712
▁gümüş	-713
arya	-714
▁car	-715
tör	-716
▁büy	-717
▁bor	-718
jet	-719
▁flor	-720
▁çiz	-721
▁90	-722
▁spor	-723
▁avon	-724
▁stic	-725
cak	-726
▁kahve	-727
▁pi	-728
▁premi	-729
31	-730
ust	-731
ich	-732
▁sm	-733
47	-734
şk	-735
▁mar	-736
▁batarya	-737
for	-738
▁uz	-739
inal	-740
▁mer	-741
uklu	-742
▁note	-743
▁boy	-744
▁sl	-745
dan	-746
48	-747
▁özel	-748
▁doğal	-749
ağ	-750
▁koruyucu	-751
▁sab	-752
▁mont	-753
▁led	-754
▁os	-755
▁fr	-756
use	-757
ley	-758
▁tas	-759
001	-760
oth	-761
▁en	-762
ph	-763
▁bah	-764
▁yaş	-765
esim	-766
mez	-767
atif	-768
lama	-769
▁ver	-770
▁def	-771
▁op	-772
▁te	-773
▁kulaklık	-774
63	-775
▁pil	-776
alet	-777
cr	-778
▁400	-779
ca	-780
▁sil	-781
▁kalemi	-782
evr	-783
▁co	-784
▁mik	-785
▁	-786
a	-787
e	-788
i	-789
r	-790
l	-791
k	-792
t	-793
n	-794
s	-795
o	-796
m	-797
0	-798
ı	-799
u	-800
d	-801
b	-802
y	-803
p	-804
1	-805
c	-806
2	-807
h	-808
g	-809
-	-810
5	-811
f	-812
3	-813
v	-814
z	-815
4	-816
ü	-817
6	-818
8	-819
7	-820
9	-821
ş	-822
ç	-823
x	-824
̇	-825
ğ	-826
w	-827
.	-828
ö	-829
j	-830
/	-831
(	-832
)	-833
'	-834
"	-835
+	-836
q	-837
,	-838
:	-839
&	-840
*	-841
?	-842
’	-843
_	-844
!	-845
;	-846
%	-847
`	-848
|	-849
ˆ	-850
®	-851
#	-852
̧	-853
[	-854
]	-855
é	-856
=	-857
́	-858
°	-859
–	-860
ø	-861
â	-862
M	-863
T	-864
”	-865
\	-866
ý	-867
î	-868
<	-869
ä	-870
è	-871
·	-872
⁄	-873
ã	-874
>	-875
~	-876
×	-877
±	-878
þ	-879
û	-880
̈	-881
′	-882
@	-883
ð	-884
✅	-885
ë	-886
“	-887
‘	-888
œ	-889
ê	-890
ا	-891
å	-892
í	-893
ž	-894
‐	-895
️	-896
ß	-897
á	-898
©	-899
à	-900
{	-901
}	-902
ì	-903
🌟	-904
ن	-905
	-906
🔻	-907
	-908
¶	-909
ș	-910
α	-911
ل	-912
ي	-913
✔	-914
⭐	-915
💎	-916
•	-917
∝	-918
😎	-919
	-920
	-921
ï	-922
ò	-923
ó	-924
μ	-925
ی	-926
­	-927
ش	-928
—	-929
‹	-930
€	-931
∘	-932
☑	-933
	-934
	-935
	-936
ñ	-937
ô	-938
ú	-939
ω	-940
د	-941
ر	-942
س	-943
ع	-944
م	-945
ە	-946
↑	-947
💥	-948
💻	-949
🚀	-950
$	-951
C	-952
^	-953
	-954
	-955
¡	-956
£	-957
¦	-958
«	-959
»	-960
ÿ	-961
ċ	-962
č	-963
ł	-964
š	-965
ȯ	-966
ə	-967
ʼ	-968
̋	-969
أ	-970
إ	-971
ب	-972
ح	-973
ز	-974
ط	-975
غ	-976
ف	-977
و	-978
ṅ	-979
∞	-980
★	-981
⚡	-982
겨	-983
국	-984
만	-985
벗	-986
베	-987
스	-988
오	-989
이	-990
일	-991
제	-992
진	-993
👌	-994
👍	-995
